{
  "version": "1.0",
  "truncation": null,
  "padding": null,
  "added_tokens": [
    {
      "id": 0,
      "content": "<|pad|>",
      "single_word": false,
      "lstrip": false,
      "rstrip": false,
      "normalized": false,
      "special": true
    },
    {
      "id": 1,
      "content": "<|im_start|>",
      "single_word": false,
      "lstrip": false,
      "rstrip": false,
      "normalized": false,
      "special": true
    },
    {
      "id": 2,
      "content": "<|im_end|>",
      "single_word": false,
      "lstrip": false,
      "rstrip": false,
      "normalized": false,
      "special": true
    },
    {
      "id": 3,
      "content": "<|endoftext|>",
      "single_word": false,
      "lstrip": false,
      "rstrip": false,
      "normalized": false,
      "special": true
    }
  ],
  "normalizer": null,
  "pre_tokenizer": {
    "type": "ByteLevel",
    "add_prefix_space": false,
    "trim_offsets": true,
    "use_regex": true
  },
  "post_processor": null,
  "decoder": {
    "type": "ByteLevel",
    "add_prefix_space": true,
    "trim_offsets": true,
    "use_regex": true
  },
  "model": {
    "type": "BPE",
    "dropout": null,
    "unk_token": null,
    "continuing_subword_prefix": null,
    "end_of_word_suffix": null,
    "fuse_unk": false,
    "byte_fallback": false,
    "ignore_merges": false,
    "vocab": {
      "<|pad|>": 0,
      "<|im_start|>": 1,
      "<|im_end|>": 2,
      "<|endoftext|>": 3,
      "!": 4,
      "\"": 5,
      "#": 6,
      "$": 7,
      "%": 8,
      "&": 9,
      "'": 10,
      "(": 11,
      ")": 12,
      "*": 13,
      "+": 14,
      ",": 15,
      "-": 16,
      ".": 17,
      "/": 18,
      "0": 19,
      "1": 20,
      "2": 21,
      "3": 22,
      "4": 23,
      "5": 24,
      "6": 25,
      "7": 26,
      "8": 27,
      "9": 28,
      ":": 29,
      ";": 30,
      "<": 31,
      "=": 32,
      ">": 33,
      "?": 34,
      "@": 35,
      "A": 36,
      "B": 37,
      "C": 38,
      "D": 39,
      "E": 40,
      "F": 41,
      "G": 42,
      "H": 43,
      "I": 44,
      "J": 45,
      "K": 46,
      "L": 47,
      "M": 48,
      "N": 49,
      "O": 50,
      "P": 51,
      "Q": 52,
      "R": 53,
      "S": 54,
      "T": 55,
      "U": 56,
      "V": 57,
      "W": 58,
      "X": 59,
      "Y": 60,
      "Z": 61,
      "[": 62,
      "\\": 63,
      "]": 64,
      "^": 65,
      "_": 66,
      "`": 67,
      "a": 68,
      "b": 69,
      "c": 70,
      "d": 71,
      "e": 72,
      "f": 73,
      "g": 74,
      "h": 75,
      "i": 76,
      "j": 77,
      "k": 78,
      "l": 79,
      "m": 80,
      "n": 81,
      "o": 82,
      "p": 83,
      "q": 84,
      "r": 85,
      "s": 86,
      "t": 87,
      "u": 88,
      "v": 89,
      "w": 90,
      "x": 91,
      "y": 92,
      "z": 93,
      "{": 94,
      "|": 95,
      "}": 96,
      "~": 97,
      "¡": 98,
      "¢": 99,
      "£": 100,
      "¤": 101,
      "¥": 102,
      "¦": 103,
      "§": 104,
      "¨": 105,
      "©": 106,
      "ª": 107,
      "«": 108,
      "¬": 109,
      "®": 110,
      "¯": 111,
      "°": 112,
      "±": 113,
      "²": 114,
      "³": 115,
      "´": 116,
      "µ": 117,
      "¶": 118,
      "·": 119,
      "¸": 120,
      "¹": 121,
      "º": 122,
      "»": 123,
      "¼": 124,
      "½": 125,
      "¾": 126,
      "¿": 127,
      "À": 128,
      "Á": 129,
      "Â": 130,
      "Ã": 131,
      "Ä": 132,
      "Å": 133,
      "Æ": 134,
      "Ç": 135,
      "È": 136,
      "É": 137,
      "Ê": 138,
      "Ë": 139,
      "Ì": 140,
      "Í": 141,
      "Î": 142,
      "Ï": 143,
      "Ð": 144,
      "Ñ": 145,
      "Ò": 146,
      "Ó": 147,
      "Ô": 148,
      "Õ": 149,
      "Ö": 150,
      "×": 151,
      "Ø": 152,
      "Ù": 153,
      "Ú": 154,
      "Û": 155,
      "Ü": 156,
      "Ý": 157,
      "Þ": 158,
      "ß": 159,
      "à": 160,
      "á": 161,
      "â": 162,
      "ã": 163,
      "ä": 164,
      "å": 165,
      "æ": 166,
      "ç": 167,
      "è": 168,
      "é": 169,
      "ê": 170,
      "ë": 171,
      "ì": 172,
      "í": 173,
      "î": 174,
      "ï": 175,
      "ð": 176,
      "ñ": 177,
      "ò": 178,
      "ó": 179,
      "ô": 180,
      "õ": 181,
      "ö": 182,
      "÷": 183,
      "ø": 184,
      "ù": 185,
      "ú": 186,
      "û": 187,
      "ü": 188,
      "ý": 189,
      "þ": 190,
      "ÿ": 191,
      "Ā": 192,
      "ā": 193,
      "Ă": 194,
      "ă": 195,
      "Ą": 196,
      "ą": 197,
      "Ć": 198,
      "ć": 199,
      "Ĉ": 200,
      "ĉ": 201,
      "Ċ": 202,
      "ċ": 203,
      "Č": 204,
      "č": 205,
      "Ď": 206,
      "ď": 207,
      "Đ": 208,
      "đ": 209,
      "Ē": 210,
      "ē": 211,
      "Ĕ": 212,
      "ĕ": 213,
      "Ė": 214,
      "ė": 215,
      "Ę": 216,
      "ę": 217,
      "Ě": 218,
      "ě": 219,
      "Ĝ": 220,
      "ĝ": 221,
      "Ğ": 222,
      "ğ": 223,
      "Ġ": 224,
      "ġ": 225,
      "Ģ": 226,
      "ģ": 227,
      "Ĥ": 228,
      "ĥ": 229,
      "Ħ": 230,
      "ħ": 231,
      "Ĩ": 232,
      "ĩ": 233,
      "Ī": 234,
      "ī": 235,
      "Ĭ": 236,
      "ĭ": 237,
      "Į": 238,
      "į": 239,
      "İ": 240,
      "ı": 241,
      "Ĳ": 242,
      "ĳ": 243,
      "Ĵ": 244,
      "ĵ": 245,
      "Ķ": 246,
      "ķ": 247,
      "ĸ": 248,
      "Ĺ": 249,
      "ĺ": 250,
      "Ļ": 251,
      "ļ": 252,
      "Ľ": 253,
      "ľ": 254,
      "Ŀ": 255,
      "ŀ": 256,
      "Ł": 257,
      "ł": 258,
      "Ń": 259,
      "Ġt": 260,
      "he": 261,
      "Ġa": 262,
      "ou": 263,
      "Ġs": 264,
      "Ġm": 265,
      "in": 266,
      "Ġw": 267,
      "re": 268,
      "ha": 269,
      "Ġthe": 270,
      "nd": 271,
      "Ġb": 272,
      "is": 273,
      "or": 274,
      "Ġf": 275,
      "er": 276,
      "ll": 277,
      "it": 278,
      "on": 279,
      "Ġd": 280,
      "Ġc": 281,
      "es": 282,
      "Ġl": 283,
      "en": 284,
      "Ġn": 285,
      "Ġy": 286,
      "ar": 287,
      "Ġth": 288,
      "Ġh": 289,
      "Ġo": 290,
      "Ġto": 291,
      "Ġp": 292,
      "Ġyou": 293,
      "hat": 294,
      "ĠI": 295,
      "Ġhe": 296,
      "ot": 297,
      "ve": 298,
      "ing": 299,
      "Ġof": 300,
      "st": 301,
      "Ġand": 302,
      "ow": 303,
      "an": 304,
      "om": 305,
      "Ġg": 306,
      "at": 307,
      "Ġbe": 308,
      "se": 309,
      "ce": 310,
      "Ġmy": 311,
      "Ġin": 312,
      "Ġha": 313,
      "le": 314,
      "ay": 315,
      "ld": 316,
      "et": 317,
      "ir": 318,
      "ed": 319,
      "ut": 320,
      "im": 321,
      "ith": 322,
      "'s": 323,
      "Ġme": 324,
      "Ġnot": 325,
      "Ġthat": 326,
      "ch": 327,
      "gh": 328,
      "our": 329,
      "Ġis": 330,
      "And": 331,
      "Ġu": 332,
      "Ġfor": 333,
      "ke": 334,
      "Ġwe": 335,
      "oo": 336,
      "ill": 337,
      "Ġe": 338,
      "her": 339,
      "Ġwith": 340,
      "Ġyour": 341,
      "Ġit": 342,
      "ad": 343,
      "ent": 344,
      "ri": 345,
      "Ġst": 346,
      "Ġthou": 347,
      "Ġhis": 348,
      "'d": 349,
      "Ġk": 350,
      "ord": 351,
      "ome": 352,
      "EN": 353,
      "ght": 354,
      "ra": 355,
      "The": 356,
      "Ġre": 357,
      "IN": 358,
      "Ġhim": 359,
      "ly": 360,
      "Ġli": 361,
      "Ġhave": 362,
      "id": 363,
      "as": 364,
      "ur": 365,
      "al": 366,
      "Ġthis": 367,
      "Ġde": 368,
      "Ġso": 369,
      "Ġon": 370,
      "Ġas": 371,
      "AR": 372,
      "ro": 373,
      "ore": 374,
      "hi": 375,
      "ould": 376,
      "ood": 377,
      "ck": 378,
      "ver": 379,
      "ain": 380,
      "est": 381,
      "ess": 382,
      "Ġthy": 383,
      "Ġsha": 384,
      "US": 385,
      "Ġdo": 386,
      "ea": 387,
      "Ġwill": 388,
      "Ġno": 389,
      "am": 390,
      "us": 391,
      "Ġbut": 392,
      "ge": 393,
      "and": 394,
      "Ġse": 395,
      "if": 396,
      "IO": 397,
      "Th": 398,
      "ion": 399,
      "To": 400,
      "Ġall": 401,
      "Ġsu": 402,
      "ake": 403,
      "th": 404,
      "ear": 405,
      "ue": 406,
      "Ġan": 407,
      "ter": 408,
      "Ġlo": 409,
      "ard": 410,
      "ING": 411,
      "han": 412,
      "Ġour": 413,
      "Ġher": 414,
      "Ġby": 415,
      "Ġsp": 416,
      "Ġfa": 417,
      "ell": 418,
      "ĠR": 419,
      "Ġshall": 420,
      "ĠC": 421,
      "Ġthee": 422,
      "rom": 423,
      "ho": 424,
      "il": 425,
      "ES": 426,
      "ct": 427,
      "ous": 428,
      "OR": 429,
      "ust": 430,
      "Ġv": 431,
      "Ġne": 432,
      "Ġare": 433,
      "That": 434,
      "ul": 435,
      "Ġkn": 436,
      "ight": 437,
      "ER": 438,
      "Ġwhat": 439,
      "Ġlord": 440,
      "Ġsh": 441,
      "ast": 442,
      "ath": 443,
      "sel": 444,
      "Ġup": 445,
      "art": 446,
      "ĠE": 447,
      "LA": 448,
      "KING": 449,
      "ant": 450,
      "Ġ'": 451,
      "UC": 452,
      "But": 453,
      "ĠM": 454,
      "hich": 455,
      "row": 456,
      "Ġgood": 457,
      "nt": 458,
      "one": 459,
      "Ġman": 460,
      "'ll": 461,
      "end": 462,
      "Ġpr": 463,
      "ine": 464,
      "Ġwhe": 465,
      "IC": 466,
      "Ġat": 467,
      "Ġbl": 468,
      "Ġcom": 469,
      "Ġfrom": 470,
      "What": 471,
      "Ġcon": 472,
      "ven": 473,
      "ic": 474,
      "ET": 475,
      "ry": 476,
      "ong": 477,
      "other": 478,
      "ive": 479,
      "Ġam": 480,
      "od": 481,
      "ble": 482,
      "For": 483,
      "ie": 484,
      "Ġthem": 485,
      "are": 486,
      "ĠG": 487,
      "IUS": 488,
      "em": 489,
      "out": 490,
      "ARD": 491,
      "ol": 492,
      "ĠH": 493,
      "Ġmore": 494,
      "Ġhat": 495,
      "ost": 496,
      "Ġwas": 497,
      "oth": 498,
      "Ġwould": 499,
      "au": 500,
      "Ġnow": 501,
      "Ġcan": 502,
      "ers": 503,
      "ond": 504,
      "Ġtheir": 505,
      "self": 506,
      "Ġthere": 507,
      "Ġking": 508,
      "Ġknow": 509,
      "ep": 510,
      "Ġif": 511,
      "ind": 512,
      "Ġtr": 513,
      "ĠO": 514,
      "Ġbr": 515,
      "Ġshe": 516,
      "fe": 517,
      "Ġlove": 518,
      "Ġus": 519,
      "Ġsw": 520,
      "Ġhere": 521,
      "Ġsay": 522,
      "Ġthey": 523,
      "--": 524,
      "LO": 525,
      "Ġthan": 526,
      "res": 527,
      "pp": 528,
      "Ġsir": 529,
      "um": 530,
      "all": 531,
      "ĠL": 532,
      "Ġor": 533,
      "Ġar": 534,
      "My": 535,
      "Ġthen": 536,
      "Ġlet": 537,
      "Ġun": 538,
      "qu": 539,
      "ĠS": 540,
      "un": 541,
      "ĠB": 542,
      "Ġgo": 543,
      "KE": 544,
      "ather": 545,
      "LI": 546,
      "He": 547,
      "ĠV": 548,
      "ate": 549,
      "ure": 550,
      "Ġwor": 551,
      "As": 552,
      "ish": 553,
      "ig": 554,
      "Ġr": 555,
      "ink": 556,
      "Ġmay": 557,
      "ort": 558,
      "fore": 559,
      "ĠA": 560,
      "ves": 561,
      "ame": 562,
      "Whe": 563,
      "Ġj": 564,
      "Ġgra": 565,
      "irst": 566,
      "ook": 567,
      "Ġhath": 568,
      "hy": 569,
      "Ġwell": 570,
      "Ġone": 571,
      "Ġcome": 572,
      "ci": 573,
      "gain": 574,
      "OM": 575,
      "ak": 576,
      "el": 577,
      "ound": 578,
      "Ġmake": 579,
      "Ġmust": 580,
      "reat": 581,
      "You": 582,
      "Ġho": 583,
      "Ġwere": 584,
      "Ġpro": 585,
      "ity": 586,
      "eak": 587,
      "Ġsee": 588,
      "Ġlike": 589,
      "pe": 590,
      "Ġhad": 591,
      "Ġsa": 592,
      "Ġpl": 593,
      "ĠW": 594,
      "Ġdeath": 595,
      "Ġshould": 596,
      "ice": 597,
      "ime": 598,
      "ng": 599,
      "Ġupon": 600,
      "Ġmad": 601,
      "ward": 602,
      "Ġtoo": 603,
      "ICH": 604,
      "DU": 605,
      "OL": 606,
      "ence": 607,
      "DUKE": 608,
      "EO": 609,
      "man": 610,
      "Ġdis": 611,
      "Ġen": 612,
      "Ġdid": 613,
      "Ġfri": 614,
      "ose": 615,
      "ful": 616,
      "nce": 617,
      "ĠP": 618,
      "ICHARD": 619,
      "TIO": 620,
      "own": 621,
      "ick": 622,
      "Ġout": 623,
      "ere": 624,
      "Ġspeak": 625,
      "Ġwhich": 626,
      "Ġfather": 627,
      "Ġpo": 628,
      "Ġheart": 629,
      "ĠY": 630,
      "Ġagain": 631,
      "Ġyet": 632,
      "Ġhand": 633,
      "entle": 634,
      "Ġhon": 635,
      "pt": 636,
      "Ġwho": 637,
      "With": 638,
      "AB": 639,
      "Which": 640,
      "ies": 641,
      "CA": 642,
      "ec": 643,
      "First": 644,
      "Ġal": 645,
      "Ġsome": 646,
      "ince": 647,
      "orn": 648,
      "Ġwhen": 649,
      "If": 650,
      "uch": 651,
      "very": 652,
      "Ġblood": 653,
      "In": 654,
      "Ġhea": 655,
      "UE": 656,
      "INC": 657,
      "Ġbrother": 658,
      "oy": 659,
      "Ġhow": 660,
      "Thou": 661,
      "Ġoff": 662,
      "ance": 663,
      "ack": 664,
      "ire": 665,
      "ĠII": 666,
      "ĠRICHARD": 667,
      "ign": 668,
      "TER": 669,
      "Ġtime": 670,
      "har": 671,
      "'t": 672,
      "wn": 673,
      "Ġmine": 674,
      "Ġson": 675,
      "GLO": 676,
      "ESTER": 677,
      "UCESTER": 678,
      "GLOUCESTER": 679,
      "Ġab": 680,
      "Ġhear": 681,
      "Ġfo": 682,
      "ither": 683,
      "Of": 684,
      "Ġmar": 685,
      "Ġfriend": 686,
      "Ġear": 687,
      "Ġsuch": 688,
      "ness": 689,
      "Ġday": 690,
      "RY": 691,
      "So": 692,
      "Ġthese": 693,
      "Ġlife": 694,
      "urse": 695,
      "EL": 696,
      "ise": 697,
      "Ġex": 698,
      "Ġdes": 699,
      "QUE": 700,
      "LAN": 701,
      "QUEEN": 702,
      "IS": 703,
      "ther": 704,
      "oul": 705,
      "Ġgive": 706,
      "ving": 707,
      "Ġro": 708,
      "ĠOF": 709,
      "ENTIO": 710,
      "This": 711,
      "No": 712,
      "ag": 713,
      "Ġword": 714,
      "Ġthink": 715,
      "Ġey": 716,
      "ady": 717,
      "BR": 718,
      "Ġlook": 719,
      "age": 720,
      "ef": 721,
      "eet": 722,
      "not": 723,
      "Ġhonour": 724,
      "Ġwhere": 725,
      "Ġtake": 726,
      "ings": 727,
      "NT": 728,
      "rown": 729,
      "AU": 730,
      "Why": 731,
      "Ġri": 732,
      "ENRY": 733,
      "Ġqu": 734,
      "Ġtell": 735,
      "Ġwar": 736,
      "ist": 737,
      "Ġfl": 738,
      "ave": 739,
      "How": 740,
      "Ġfear": 741,
      "Ġart": 742,
      "way": 743,
      "Ġmuch": 744,
      "ĠVINC": 745,
      "ĠVINCENTIO": 746,
      "ase": 747,
      "Ġmost": 748,
      "urn": 749,
      "Ġlea": 750,
      "Ġgentle": 751,
      "Ġsl": 752,
      "ĠRome": 753,
      "Ġmade": 754,
      "ORK": 755,
      "ĠGod": 756,
      "iz": 757,
      "Ġbre": 758,
      "Where": 759,
      "We": 760,
      "INIUS": 761,
      "Ġmen": 762,
      "Ġcou": 763,
      "de": 764,
      "ĠT": 765,
      "cc": 766,
      "uke": 767,
      "ough": 768,
      "ower": 769,
      "Ġbet": 770,
      "tis": 771,
      "Ġhast": 772,
      "Be": 773,
      "ee": 774,
      "ation": 775,
      "DW": 776,
      "DWARD": 777,
      "igh": 778,
      "que": 779,
      "Ġpart": 780,
      "Ġgreat": 781,
      "Is": 782,
      "ber": 783,
      "tle": 784,
      "orrow": 785,
      "Ġfair": 786,
      "Ġheaven": 787,
      "ple": 788,
      "Ġtw": 789,
      "Ġaf": 790,
      "old": 791,
      "Now": 792,
      "ved": 793,
      "Ġnew": 794,
      "Who": 795,
      "Ġtrue": 796,
      "Your": 797,
      "ss": 798,
      "ears": 799,
      "Or": 800,
      "Ġstand": 801,
      "Ġnoble": 802,
      "ap": 803,
      "Ġnever": 804,
      "Ġcannot": 805,
      "aw": 806,
      "HA": 807,
      "UM": 808,
      "ment": 809,
      "Ġany": 810,
      "dward": 811,
      "Ġad": 812,
      "Ġpre": 813,
      "ide": 814,
      "MEN": 815,
      "ROM": 816,
      "ROMEO": 817,
      "ree": 818,
      "Ġbeen": 819,
      "ENIUS": 820,
      "MENENIUS": 821,
      "Ġcl": 822,
      "ĠCl": 823,
      "Ġra": 824,
      "Ġwr": 825,
      "Ġcomm": 826,
      "aught": 827,
      ",--": 828,
      "AN": 829,
      "ĠD": 830,
      "Ġque": 831,
      "There": 832,
      "hing": 833,
      "Ġsoul": 834,
      "Ġdoth": 835,
      "Ġqueen": 836,
      "li": 837,
      "Ġsc": 838,
      "Ġcall": 839,
      "Ġown": 840,
      "It": 841,
      "ger": 842,
      "io": 843,
      "Ġper": 844,
      "Ġhead": 845,
      "Ġdead": 846,
      "Ġname": 847,
      "ull": 848,
      "Ġother": 849,
      "Ġsweet": 850,
      "ouse": 851,
      "erv": 852,
      "Ġdone": 853,
      "Ġchi": 854,
      "Ġnight": 855,
      "ace": 856,
      "Ġple": 857,
      "Ġpres": 858,
      "Ġbear": 859,
      "IOLAN": 860,
      "ORIOLAN": 861,
      "ORIOLANUS": 862,
      "Come": 863,
      "CORIOLANUS": 864,
      "Sec": 865,
      "ĠLord": 866,
      "When": 867,
      "Second": 868,
      "Ġway": 869,
      "Ġnor": 870,
      "ĠEdward": 871,
      "ause": 872,
      "By": 873,
      "ĠF": 874,
      "ife": 875,
      "Ay": 876,
      "per": 877,
      "aint": 878,
      "Than": 879,
      "less": 880,
      "ite": 881,
      "ilt": 882,
      "Ġarm": 883,
      "Ġgrace": 884,
      "ock": 885,
      "Ġboth": 886,
      "Ġbefore": 887,
      "ĠEDWARD": 888,
      "Ġworld": 889,
      "ass": 890,
      "Ġpray": 891,
      "Ġvery": 892,
      "itiz": 893,
      "ans": 894,
      "itizen": 895,
      "ab": 896,
      "to": 897,
      "uck": 898,
      "Ġdown": 899,
      "Then": 900,
      "ction": 901,
      "ĠMar": 902,
      "Nor": 903,
      "Ġapp": 904,
      "aster": 905,
      "Ġmother": 906,
      "urd": 907,
      "ĠIII": 908,
      "able": 909,
      "wick": 910,
      "Ġke": 911,
      "Ġmyself": 912,
      "the": 913,
      "Ġma": 914,
      "Ġrem": 915,
      "land": 916,
      "Ġlive": 917,
      "Ġeyes": 918,
      "ford": 919,
      "arwick": 920,
      "Ġbeg": 921,
      "Ġfriends": 922,
      "Ġchild": 923,
      "les": 924,
      "Ġwh": 925,
      "Ġthus": 926,
      "Ġunt": 927,
      "Ġcont": 928,
      "Ġleave": 929,
      "LUC": 930,
      "me": 931,
      "Ġim": 932,
      "eace": 933,
      "ĠYORK": 934,
      "Ġdie": 935,
      "Ġbeing": 936,
      "ABEL": 937,
      "ISABEL": 938,
      "ISABELLA": 939,
      "ĠJ": 940,
      "Ġpoor": 941,
      "ps": 942,
      "Ġstr": 943,
      "JU": 944,
      "LEO": 945,
      "lo": 946,
      "Ġlong": 947,
      "ows": 948,
      "Ġever": 949,
      "Ġcons": 950,
      "LIET": 951,
      "ĠWarwick": 952,
      "NTES": 953,
      "aughter": 954,
      "JULIET": 955,
      "LEONTES": 956,
      "Let": 957,
      "Ġaway": 958,
      "Ġcrown": 959,
      "led": 960,
      "Ġthought": 961,
      "Ġmany": 962,
      "ks": 963,
      "oud": 964,
      "DY": 965,
      "for": 966,
      "Ġmight": 967,
      "hall": 968,
      "Ġpe": 969,
      "Ġrep": 970,
      "LADY": 971,
      "CE": 972,
      "VOL": 973,
      "Ġwom": 974,
      "ENCE": 975,
      "Ġlie": 976,
      "ff": 977,
      "ison": 978,
      "erc": 979,
      "Ġcour": 980,
      "Ġstay": 981,
      "She": 982,
      "sw": 983,
      "Ġset": 984,
      "red": 985,
      "atter": 986,
      "Ġprince": 987,
      "SIC": 988,
      "well": 989,
      "Ġwife": 990,
      "nder": 991,
      "ors": 992,
      "Ġrest": 993,
      "hard": 994,
      "SICINIUS": 995,
      "rant": 996,
      "Ġtong": 997,
      "Ġold": 998,
      "His": 999,
      "Ġle": 1000,
      "Ġgone": 1001,
      "Ġhar": 1002,
      "come": 1003,
      "ought": 1004,
      "Ġlords": 1005,
      "Ġcomes": 1006,
      "EY": 1007,
      "ious": 1008,
      "ittle": 1009,
      "ont": 1010,
      "atch": 1011,
      "che": 1012,
      "Ġgri": 1013,
      "Tis": 1014,
      "int": 1015,
      "Ġthose": 1016,
      "Ġhouse": 1017,
      "Ġres": 1018,
      "ult": 1019,
      "ress": 1020,
      "akes": 1021,
      "LUCIO": 1022,
      "ier": 1023
    },
    "merges": [
      [
        "Ġ",
        "t"
      ],
      [
        "h",
        "e"
      ],
      [
        "Ġ",
        "a"
      ],
      [
        "o",
        "u"
      ],
      [
        "Ġ",
        "s"
      ],
      [
        "Ġ",
        "m"
      ],
      [
        "i",
        "n"
      ],
      [
        "Ġ",
        "w"
      ],
      [
        "r",
        "e"
      ],
      [
        "h",
        "a"
      ],
      [
        "Ġt",
        "he"
      ],
      [
        "n",
        "d"
      ],
      [
        "Ġ",
        "b"
      ],
      [
        "i",
        "s"
      ],
      [
        "o",
        "r"
      ],
      [
        "Ġ",
        "f"
      ],
      [
        "e",
        "r"
      ],
      [
        "l",
        "l"
      ],
      [
        "i",
        "t"
      ],
      [
        "o",
        "n"
      ],
      [
        "Ġ",
        "d"
      ],
      [
        "Ġ",
        "c"
      ],
      [
        "e",
        "s"
      ],
      [
        "Ġ",
        "l"
      ],
      [
        "e",
        "n"
      ],
      [
        "Ġ",
        "n"
      ],
      [
        "Ġ",
        "y"
      ],
      [
        "a",
        "r"
      ],
      [
        "Ġt",
        "h"
      ],
      [
        "Ġ",
        "h"
      ],
      [
        "Ġ",
        "o"
      ],
      [
        "Ġt",
        "o"
      ],
      [
        "Ġ",
        "p"
      ],
      [
        "Ġy",
        "ou"
      ],
      [
        "ha",
        "t"
      ],
      [
        "Ġ",
        "I"
      ],
      [
        "Ġ",
        "he"
      ],
      [
        "o",
        "t"
      ],
      [
        "v",
        "e"
      ],
      [
        "in",
        "g"
      ],
      [
        "Ġo",
        "f"
      ],
      [
        "s",
        "t"
      ],
      [
        "Ġa",
        "nd"
      ],
      [
        "o",
        "w"
      ],
      [
        "a",
        "n"
      ],
      [
        "o",
        "m"
      ],
      [
        "Ġ",
        "g"
      ],
      [
        "a",
        "t"
      ],
      [
        "Ġb",
        "e"
      ],
      [
        "s",
        "e"
      ],
      [
        "c",
        "e"
      ],
      [
        "Ġm",
        "y"
      ],
      [
        "Ġ",
        "in"
      ],
      [
        "Ġ",
        "ha"
      ],
      [
        "l",
        "e"
      ],
      [
        "a",
        "y"
      ],
      [
        "l",
        "d"
      ],
      [
        "e",
        "t"
      ],
      [
        "i",
        "r"
      ],
      [
        "e",
        "d"
      ],
      [
        "u",
        "t"
      ],
      [
        "i",
        "m"
      ],
      [
        "it",
        "h"
      ],
      [
        "'",
        "s"
      ],
      [
        "Ġm",
        "e"
      ],
      [
        "Ġn",
        "ot"
      ],
      [
        "Ġt",
        "hat"
      ],
      [
        "c",
        "h"
      ],
      [
        "g",
        "h"
      ],
      [
        "ou",
        "r"
      ],
      [
        "Ġ",
        "is"
      ],
      [
        "A",
        "nd"
      ],
      [
        "Ġ",
        "u"
      ],
      [
        "Ġf",
        "or"
      ],
      [
        "k",
        "e"
      ],
      [
        "Ġw",
        "e"
      ],
      [
        "o",
        "o"
      ],
      [
        "i",
        "ll"
      ],
      [
        "Ġ",
        "e"
      ],
      [
        "he",
        "r"
      ],
      [
        "Ġw",
        "ith"
      ],
      [
        "Ġyou",
        "r"
      ],
      [
        "Ġ",
        "it"
      ],
      [
        "a",
        "d"
      ],
      [
        "en",
        "t"
      ],
      [
        "r",
        "i"
      ],
      [
        "Ġs",
        "t"
      ],
      [
        "Ġth",
        "ou"
      ],
      [
        "Ġh",
        "is"
      ],
      [
        "'",
        "d"
      ],
      [
        "Ġ",
        "k"
      ],
      [
        "or",
        "d"
      ],
      [
        "om",
        "e"
      ],
      [
        "E",
        "N"
      ],
      [
        "gh",
        "t"
      ],
      [
        "r",
        "a"
      ],
      [
        "T",
        "he"
      ],
      [
        "Ġ",
        "re"
      ],
      [
        "I",
        "N"
      ],
      [
        "Ġh",
        "im"
      ],
      [
        "l",
        "y"
      ],
      [
        "Ġl",
        "i"
      ],
      [
        "Ġha",
        "ve"
      ],
      [
        "i",
        "d"
      ],
      [
        "a",
        "s"
      ],
      [
        "u",
        "r"
      ],
      [
        "a",
        "l"
      ],
      [
        "Ġth",
        "is"
      ],
      [
        "Ġd",
        "e"
      ],
      [
        "Ġs",
        "o"
      ],
      [
        "Ġ",
        "on"
      ],
      [
        "Ġa",
        "s"
      ],
      [
        "A",
        "R"
      ],
      [
        "r",
        "o"
      ],
      [
        "o",
        "re"
      ],
      [
        "h",
        "i"
      ],
      [
        "ou",
        "ld"
      ],
      [
        "oo",
        "d"
      ],
      [
        "c",
        "k"
      ],
      [
        "v",
        "er"
      ],
      [
        "a",
        "in"
      ],
      [
        "es",
        "t"
      ],
      [
        "es",
        "s"
      ],
      [
        "Ġth",
        "y"
      ],
      [
        "Ġs",
        "ha"
      ],
      [
        "U",
        "S"
      ],
      [
        "Ġd",
        "o"
      ],
      [
        "e",
        "a"
      ],
      [
        "Ġw",
        "ill"
      ],
      [
        "Ġn",
        "o"
      ],
      [
        "a",
        "m"
      ],
      [
        "u",
        "s"
      ],
      [
        "Ġb",
        "ut"
      ],
      [
        "g",
        "e"
      ],
      [
        "a",
        "nd"
      ],
      [
        "Ġs",
        "e"
      ],
      [
        "i",
        "f"
      ],
      [
        "I",
        "O"
      ],
      [
        "T",
        "h"
      ],
      [
        "i",
        "on"
      ],
      [
        "T",
        "o"
      ],
      [
        "Ġa",
        "ll"
      ],
      [
        "Ġs",
        "u"
      ],
      [
        "a",
        "ke"
      ],
      [
        "t",
        "h"
      ],
      [
        "e",
        "ar"
      ],
      [
        "u",
        "e"
      ],
      [
        "Ġa",
        "n"
      ],
      [
        "t",
        "er"
      ],
      [
        "Ġl",
        "o"
      ],
      [
        "ar",
        "d"
      ],
      [
        "IN",
        "G"
      ],
      [
        "ha",
        "n"
      ],
      [
        "Ġ",
        "our"
      ],
      [
        "Ġhe",
        "r"
      ],
      [
        "Ġb",
        "y"
      ],
      [
        "Ġs",
        "p"
      ],
      [
        "Ġf",
        "a"
      ],
      [
        "e",
        "ll"
      ],
      [
        "Ġ",
        "R"
      ],
      [
        "Ġsha",
        "ll"
      ],
      [
        "Ġ",
        "C"
      ],
      [
        "Ġthe",
        "e"
      ],
      [
        "r",
        "om"
      ],
      [
        "h",
        "o"
      ],
      [
        "i",
        "l"
      ],
      [
        "E",
        "S"
      ],
      [
        "c",
        "t"
      ],
      [
        "ou",
        "s"
      ],
      [
        "O",
        "R"
      ],
      [
        "u",
        "st"
      ],
      [
        "Ġ",
        "v"
      ],
      [
        "Ġn",
        "e"
      ],
      [
        "Ġa",
        "re"
      ],
      [
        "T",
        "hat"
      ],
      [
        "u",
        "l"
      ],
      [
        "Ġk",
        "n"
      ],
      [
        "i",
        "ght"
      ],
      [
        "E",
        "R"
      ],
      [
        "Ġw",
        "hat"
      ],
      [
        "Ġl",
        "ord"
      ],
      [
        "Ġs",
        "h"
      ],
      [
        "a",
        "st"
      ],
      [
        "at",
        "h"
      ],
      [
        "se",
        "l"
      ],
      [
        "Ġu",
        "p"
      ],
      [
        "ar",
        "t"
      ],
      [
        "Ġ",
        "E"
      ],
      [
        "L",
        "A"
      ],
      [
        "K",
        "ING"
      ],
      [
        "an",
        "t"
      ],
      [
        "Ġ",
        "'"
      ],
      [
        "U",
        "C"
      ],
      [
        "B",
        "ut"
      ],
      [
        "Ġ",
        "M"
      ],
      [
        "hi",
        "ch"
      ],
      [
        "r",
        "ow"
      ],
      [
        "Ġg",
        "ood"
      ],
      [
        "n",
        "t"
      ],
      [
        "on",
        "e"
      ],
      [
        "Ġm",
        "an"
      ],
      [
        "'",
        "ll"
      ],
      [
        "e",
        "nd"
      ],
      [
        "Ġp",
        "r"
      ],
      [
        "in",
        "e"
      ],
      [
        "Ġw",
        "he"
      ],
      [
        "I",
        "C"
      ],
      [
        "Ġa",
        "t"
      ],
      [
        "Ġb",
        "l"
      ],
      [
        "Ġc",
        "om"
      ],
      [
        "Ġf",
        "rom"
      ],
      [
        "W",
        "hat"
      ],
      [
        "Ġc",
        "on"
      ],
      [
        "v",
        "en"
      ],
      [
        "i",
        "c"
      ],
      [
        "E",
        "T"
      ],
      [
        "r",
        "y"
      ],
      [
        "on",
        "g"
      ],
      [
        "ot",
        "her"
      ],
      [
        "i",
        "ve"
      ],
      [
        "Ġa",
        "m"
      ],
      [
        "o",
        "d"
      ],
      [
        "b",
        "le"
      ],
      [
        "F",
        "or"
      ],
      [
        "i",
        "e"
      ],
      [
        "Ġthe",
        "m"
      ],
      [
        "a",
        "re"
      ],
      [
        "Ġ",
        "G"
      ],
      [
        "I",
        "US"
      ],
      [
        "e",
        "m"
      ],
      [
        "ou",
        "t"
      ],
      [
        "AR",
        "D"
      ],
      [
        "o",
        "l"
      ],
      [
        "Ġ",
        "H"
      ],
      [
        "Ġm",
        "ore"
      ],
      [
        "Ġ",
        "hat"
      ],
      [
        "o",
        "st"
      ],
      [
        "Ġw",
        "as"
      ],
      [
        "ot",
        "h"
      ],
      [
        "Ġw",
        "ould"
      ],
      [
        "a",
        "u"
      ],
      [
        "Ġn",
        "ow"
      ],
      [
        "Ġc",
        "an"
      ],
      [
        "er",
        "s"
      ],
      [
        "o",
        "nd"
      ],
      [
        "Ġthe",
        "ir"
      ],
      [
        "sel",
        "f"
      ],
      [
        "Ġthe",
        "re"
      ],
      [
        "Ġk",
        "ing"
      ],
      [
        "Ġkn",
        "ow"
      ],
      [
        "e",
        "p"
      ],
      [
        "Ġ",
        "if"
      ],
      [
        "in",
        "d"
      ],
      [
        "Ġt",
        "r"
      ],
      [
        "Ġ",
        "O"
      ],
      [
        "Ġb",
        "r"
      ],
      [
        "Ġs",
        "he"
      ],
      [
        "f",
        "e"
      ],
      [
        "Ġlo",
        "ve"
      ],
      [
        "Ġu",
        "s"
      ],
      [
        "Ġs",
        "w"
      ],
      [
        "Ġhe",
        "re"
      ],
      [
        "Ġs",
        "ay"
      ],
      [
        "Ġthe",
        "y"
      ],
      [
        "-",
        "-"
      ],
      [
        "L",
        "O"
      ],
      [
        "Ġt",
        "han"
      ],
      [
        "re",
        "s"
      ],
      [
        "p",
        "p"
      ],
      [
        "Ġs",
        "ir"
      ],
      [
        "u",
        "m"
      ],
      [
        "a",
        "ll"
      ],
      [
        "Ġ",
        "L"
      ],
      [
        "Ġ",
        "or"
      ],
      [
        "Ġa",
        "r"
      ],
      [
        "M",
        "y"
      ],
      [
        "Ġthe",
        "n"
      ],
      [
        "Ġl",
        "et"
      ],
      [
        "Ġu",
        "n"
      ],
      [
        "q",
        "u"
      ],
      [
        "Ġ",
        "S"
      ],
      [
        "u",
        "n"
      ],
      [
        "Ġ",
        "B"
      ],
      [
        "Ġg",
        "o"
      ],
      [
        "K",
        "E"
      ],
      [
        "at",
        "her"
      ],
      [
        "L",
        "I"
      ],
      [
        "H",
        "e"
      ],
      [
        "Ġ",
        "V"
      ],
      [
        "at",
        "e"
      ],
      [
        "u",
        "re"
      ],
      [
        "Ġw",
        "or"
      ],
      [
        "A",
        "s"
      ],
      [
        "is",
        "h"
      ],
      [
        "i",
        "g"
      ],
      [
        "Ġ",
        "r"
      ],
      [
        "in",
        "k"
      ],
      [
        "Ġm",
        "ay"
      ],
      [
        "or",
        "t"
      ],
      [
        "f",
        "ore"
      ],
      [
        "Ġ",
        "A"
      ],
      [
        "v",
        "es"
      ],
      [
        "am",
        "e"
      ],
      [
        "W",
        "he"
      ],
      [
        "Ġ",
        "j"
      ],
      [
        "Ġg",
        "ra"
      ],
      [
        "ir",
        "st"
      ],
      [
        "oo",
        "k"
      ],
      [
        "Ġhat",
        "h"
      ],
      [
        "h",
        "y"
      ],
      [
        "Ġwe",
        "ll"
      ],
      [
        "Ġon",
        "e"
      ],
      [
        "Ġc",
        "ome"
      ],
      [
        "c",
        "i"
      ],
      [
        "g",
        "ain"
      ],
      [
        "O",
        "M"
      ],
      [
        "a",
        "k"
      ],
      [
        "e",
        "l"
      ],
      [
        "ou",
        "nd"
      ],
      [
        "Ġm",
        "ake"
      ],
      [
        "Ġm",
        "ust"
      ],
      [
        "re",
        "at"
      ],
      [
        "Y",
        "ou"
      ],
      [
        "Ġh",
        "o"
      ],
      [
        "Ġwe",
        "re"
      ],
      [
        "Ġp",
        "ro"
      ],
      [
        "it",
        "y"
      ],
      [
        "ea",
        "k"
      ],
      [
        "Ġse",
        "e"
      ],
      [
        "Ġli",
        "ke"
      ],
      [
        "p",
        "e"
      ],
      [
        "Ġha",
        "d"
      ],
      [
        "Ġs",
        "a"
      ],
      [
        "Ġp",
        "l"
      ],
      [
        "Ġ",
        "W"
      ],
      [
        "Ġde",
        "ath"
      ],
      [
        "Ġsh",
        "ould"
      ],
      [
        "i",
        "ce"
      ],
      [
        "im",
        "e"
      ],
      [
        "n",
        "g"
      ],
      [
        "Ġup",
        "on"
      ],
      [
        "Ġm",
        "ad"
      ],
      [
        "w",
        "ard"
      ],
      [
        "Ġto",
        "o"
      ],
      [
        "IC",
        "H"
      ],
      [
        "D",
        "U"
      ],
      [
        "O",
        "L"
      ],
      [
        "en",
        "ce"
      ],
      [
        "DU",
        "KE"
      ],
      [
        "E",
        "O"
      ],
      [
        "m",
        "an"
      ],
      [
        "Ġd",
        "is"
      ],
      [
        "Ġ",
        "en"
      ],
      [
        "Ġd",
        "id"
      ],
      [
        "Ġf",
        "ri"
      ],
      [
        "o",
        "se"
      ],
      [
        "f",
        "ul"
      ],
      [
        "n",
        "ce"
      ],
      [
        "Ġ",
        "P"
      ],
      [
        "ICH",
        "ARD"
      ],
      [
        "T",
        "IO"
      ],
      [
        "ow",
        "n"
      ],
      [
        "i",
        "ck"
      ],
      [
        "Ġ",
        "out"
      ],
      [
        "e",
        "re"
      ],
      [
        "Ġsp",
        "eak"
      ],
      [
        "Ġw",
        "hich"
      ],
      [
        "Ġf",
        "ather"
      ],
      [
        "Ġp",
        "o"
      ],
      [
        "Ġhe",
        "art"
      ],
      [
        "Ġ",
        "Y"
      ],
      [
        "Ġa",
        "gain"
      ],
      [
        "Ġy",
        "et"
      ],
      [
        "Ġha",
        "nd"
      ],
      [
        "ent",
        "le"
      ],
      [
        "Ġh",
        "on"
      ],
      [
        "p",
        "t"
      ],
      [
        "Ġw",
        "ho"
      ],
      [
        "W",
        "ith"
      ],
      [
        "A",
        "B"
      ],
      [
        "W",
        "hich"
      ],
      [
        "i",
        "es"
      ],
      [
        "C",
        "A"
      ],
      [
        "e",
        "c"
      ],
      [
        "F",
        "irst"
      ],
      [
        "Ġa",
        "l"
      ],
      [
        "Ġs",
        "ome"
      ],
      [
        "in",
        "ce"
      ],
      [
        "or",
        "n"
      ],
      [
        "Ġwhe",
        "n"
      ],
      [
        "I",
        "f"
      ],
      [
        "u",
        "ch"
      ],
      [
        "ver",
        "y"
      ],
      [
        "Ġbl",
        "ood"
      ],
      [
        "I",
        "n"
      ],
      [
        "Ġhe",
        "a"
      ],
      [
        "U",
        "E"
      ],
      [
        "IN",
        "C"
      ],
      [
        "Ġbr",
        "other"
      ],
      [
        "o",
        "y"
      ],
      [
        "Ġh",
        "ow"
      ],
      [
        "Th",
        "ou"
      ],
      [
        "Ġof",
        "f"
      ],
      [
        "an",
        "ce"
      ],
      [
        "a",
        "ck"
      ],
      [
        "i",
        "re"
      ],
      [
        "ĠI",
        "I"
      ],
      [
        "ĠR",
        "ICHARD"
      ],
      [
        "ig",
        "n"
      ],
      [
        "T",
        "ER"
      ],
      [
        "Ġt",
        "ime"
      ],
      [
        "ha",
        "r"
      ],
      [
        "'",
        "t"
      ],
      [
        "w",
        "n"
      ],
      [
        "Ġm",
        "ine"
      ],
      [
        "Ġs",
        "on"
      ],
      [
        "G",
        "LO"
      ],
      [
        "ES",
        "TER"
      ],
      [
        "UC",
        "ESTER"
      ],
      [
        "GLO",
        "UCESTER"
      ],
      [
        "Ġa",
        "b"
      ],
      [
        "Ġhe",
        "ar"
      ],
      [
        "Ġf",
        "o"
      ],
      [
        "it",
        "her"
      ],
      [
        "O",
        "f"
      ],
      [
        "Ġm",
        "ar"
      ],
      [
        "Ġfri",
        "end"
      ],
      [
        "Ġe",
        "ar"
      ],
      [
        "Ġsu",
        "ch"
      ],
      [
        "n",
        "ess"
      ],
      [
        "Ġd",
        "ay"
      ],
      [
        "R",
        "Y"
      ],
      [
        "S",
        "o"
      ],
      [
        "Ġthe",
        "se"
      ],
      [
        "Ġli",
        "fe"
      ],
      [
        "ur",
        "se"
      ],
      [
        "E",
        "L"
      ],
      [
        "is",
        "e"
      ],
      [
        "Ġe",
        "x"
      ],
      [
        "Ġd",
        "es"
      ],
      [
        "Q",
        "UE"
      ],
      [
        "LA",
        "N"
      ],
      [
        "QUE",
        "EN"
      ],
      [
        "I",
        "S"
      ],
      [
        "t",
        "her"
      ],
      [
        "ou",
        "l"
      ],
      [
        "Ġg",
        "ive"
      ],
      [
        "v",
        "ing"
      ],
      [
        "Ġ",
        "ro"
      ],
      [
        "ĠO",
        "F"
      ],
      [
        "EN",
        "TIO"
      ],
      [
        "Th",
        "is"
      ],
      [
        "N",
        "o"
      ],
      [
        "a",
        "g"
      ],
      [
        "Ġw",
        "ord"
      ],
      [
        "Ġth",
        "ink"
      ],
      [
        "Ġe",
        "y"
      ],
      [
        "ad",
        "y"
      ],
      [
        "B",
        "R"
      ],
      [
        "Ġl",
        "ook"
      ],
      [
        "a",
        "ge"
      ],
      [
        "e",
        "f"
      ],
      [
        "e",
        "et"
      ],
      [
        "n",
        "ot"
      ],
      [
        "Ġhon",
        "our"
      ],
      [
        "Ġwhe",
        "re"
      ],
      [
        "Ġt",
        "ake"
      ],
      [
        "ing",
        "s"
      ],
      [
        "N",
        "T"
      ],
      [
        "row",
        "n"
      ],
      [
        "A",
        "U"
      ],
      [
        "W",
        "hy"
      ],
      [
        "Ġ",
        "ri"
      ],
      [
        "EN",
        "RY"
      ],
      [
        "Ġ",
        "qu"
      ],
      [
        "Ġt",
        "ell"
      ],
      [
        "Ġw",
        "ar"
      ],
      [
        "is",
        "t"
      ],
      [
        "Ġf",
        "l"
      ],
      [
        "a",
        "ve"
      ],
      [
        "H",
        "ow"
      ],
      [
        "Ġf",
        "ear"
      ],
      [
        "Ġar",
        "t"
      ],
      [
        "w",
        "ay"
      ],
      [
        "Ġm",
        "uch"
      ],
      [
        "ĠV",
        "INC"
      ],
      [
        "ĠVINC",
        "ENTIO"
      ],
      [
        "a",
        "se"
      ],
      [
        "Ġm",
        "ost"
      ],
      [
        "ur",
        "n"
      ],
      [
        "Ġl",
        "ea"
      ],
      [
        "Ġg",
        "entle"
      ],
      [
        "Ġs",
        "l"
      ],
      [
        "ĠR",
        "ome"
      ],
      [
        "Ġmad",
        "e"
      ],
      [
        "OR",
        "K"
      ],
      [
        "ĠG",
        "od"
      ],
      [
        "i",
        "z"
      ],
      [
        "Ġb",
        "re"
      ],
      [
        "Whe",
        "re"
      ],
      [
        "W",
        "e"
      ],
      [
        "IN",
        "IUS"
      ],
      [
        "Ġm",
        "en"
      ],
      [
        "Ġc",
        "ou"
      ],
      [
        "d",
        "e"
      ],
      [
        "Ġ",
        "T"
      ],
      [
        "c",
        "c"
      ],
      [
        "u",
        "ke"
      ],
      [
        "ou",
        "gh"
      ],
      [
        "ow",
        "er"
      ],
      [
        "Ġbe",
        "t"
      ],
      [
        "t",
        "is"
      ],
      [
        "Ġha",
        "st"
      ],
      [
        "B",
        "e"
      ],
      [
        "e",
        "e"
      ],
      [
        "at",
        "ion"
      ],
      [
        "D",
        "W"
      ],
      [
        "DW",
        "ARD"
      ],
      [
        "i",
        "gh"
      ],
      [
        "q",
        "ue"
      ],
      [
        "Ġp",
        "art"
      ],
      [
        "Ġg",
        "reat"
      ],
      [
        "I",
        "s"
      ],
      [
        "b",
        "er"
      ],
      [
        "t",
        "le"
      ],
      [
        "or",
        "row"
      ],
      [
        "Ġfa",
        "ir"
      ],
      [
        "Ġhea",
        "ven"
      ],
      [
        "p",
        "le"
      ],
      [
        "Ġt",
        "w"
      ],
      [
        "Ġa",
        "f"
      ],
      [
        "o",
        "ld"
      ],
      [
        "N",
        "ow"
      ],
      [
        "ve",
        "d"
      ],
      [
        "Ġne",
        "w"
      ],
      [
        "W",
        "ho"
      ],
      [
        "Ġtr",
        "ue"
      ],
      [
        "Y",
        "our"
      ],
      [
        "s",
        "s"
      ],
      [
        "ear",
        "s"
      ],
      [
        "O",
        "r"
      ],
      [
        "Ġst",
        "and"
      ],
      [
        "Ġno",
        "ble"
      ],
      [
        "a",
        "p"
      ],
      [
        "Ġne",
        "ver"
      ],
      [
        "Ġcan",
        "not"
      ],
      [
        "a",
        "w"
      ],
      [
        "H",
        "A"
      ],
      [
        "U",
        "M"
      ],
      [
        "m",
        "ent"
      ],
      [
        "Ġan",
        "y"
      ],
      [
        "d",
        "ward"
      ],
      [
        "Ġa",
        "d"
      ],
      [
        "Ġp",
        "re"
      ],
      [
        "id",
        "e"
      ],
      [
        "M",
        "EN"
      ],
      [
        "R",
        "OM"
      ],
      [
        "ROM",
        "EO"
      ],
      [
        "re",
        "e"
      ],
      [
        "Ġbe",
        "en"
      ],
      [
        "EN",
        "IUS"
      ],
      [
        "MEN",
        "ENIUS"
      ],
      [
        "Ġc",
        "l"
      ],
      [
        "ĠC",
        "l"
      ],
      [
        "Ġ",
        "ra"
      ],
      [
        "Ġw",
        "r"
      ],
      [
        "Ġcom",
        "m"
      ],
      [
        "au",
        "ght"
      ],
      [
        ",",
        "--"
      ],
      [
        "A",
        "N"
      ],
      [
        "Ġ",
        "D"
      ],
      [
        "Ġ",
        "que"
      ],
      [
        "The",
        "re"
      ],
      [
        "h",
        "ing"
      ],
      [
        "Ġs",
        "oul"
      ],
      [
        "Ġd",
        "oth"
      ],
      [
        "Ġque",
        "en"
      ],
      [
        "l",
        "i"
      ],
      [
        "Ġs",
        "c"
      ],
      [
        "Ġc",
        "all"
      ],
      [
        "Ġo",
        "wn"
      ],
      [
        "I",
        "t"
      ],
      [
        "g",
        "er"
      ],
      [
        "i",
        "o"
      ],
      [
        "Ġp",
        "er"
      ],
      [
        "Ġhe",
        "ad"
      ],
      [
        "Ġde",
        "ad"
      ],
      [
        "Ġn",
        "ame"
      ],
      [
        "u",
        "ll"
      ],
      [
        "Ġo",
        "ther"
      ],
      [
        "Ġsw",
        "eet"
      ],
      [
        "ou",
        "se"
      ],
      [
        "er",
        "v"
      ],
      [
        "Ġd",
        "one"
      ],
      [
        "Ġc",
        "hi"
      ],
      [
        "Ġn",
        "ight"
      ],
      [
        "a",
        "ce"
      ],
      [
        "Ġp",
        "le"
      ],
      [
        "Ġp",
        "res"
      ],
      [
        "Ġbe",
        "ar"
      ],
      [
        "IO",
        "LAN"
      ],
      [
        "OR",
        "IOLAN"
      ],
      [
        "ORIOLAN",
        "US"
      ],
      [
        "C",
        "ome"
      ],
      [
        "C",
        "ORIOLANUS"
      ],
      [
        "S",
        "ec"
      ],
      [
        "ĠL",
        "ord"
      ],
      [
        "Whe",
        "n"
      ],
      [
        "Sec",
        "ond"
      ],
      [
        "Ġw",
        "ay"
      ],
      [
        "Ġn",
        "or"
      ],
      [
        "ĠE",
        "dward"
      ],
      [
        "au",
        "se"
      ],
      [
        "B",
        "y"
      ],
      [
        "Ġ",
        "F"
      ],
      [
        "if",
        "e"
      ],
      [
        "A",
        "y"
      ],
      [
        "p",
        "er"
      ],
      [
        "ain",
        "t"
      ],
      [
        "T",
        "han"
      ],
      [
        "l",
        "ess"
      ],
      [
        "it",
        "e"
      ],
      [
        "il",
        "t"
      ],
      [
        "Ġar",
        "m"
      ],
      [
        "Ġgra",
        "ce"
      ],
      [
        "o",
        "ck"
      ],
      [
        "Ġb",
        "oth"
      ],
      [
        "Ġbe",
        "fore"
      ],
      [
        "ĠE",
        "DWARD"
      ],
      [
        "Ġwor",
        "ld"
      ],
      [
        "as",
        "s"
      ],
      [
        "Ġpr",
        "ay"
      ],
      [
        "Ġ",
        "very"
      ],
      [
        "it",
        "iz"
      ],
      [
        "an",
        "s"
      ],
      [
        "itiz",
        "en"
      ],
      [
        "a",
        "b"
      ],
      [
        "t",
        "o"
      ],
      [
        "u",
        "ck"
      ],
      [
        "Ġd",
        "own"
      ],
      [
        "The",
        "n"
      ],
      [
        "ct",
        "ion"
      ],
      [
        "ĠM",
        "ar"
      ],
      [
        "N",
        "or"
      ],
      [
        "Ġa",
        "pp"
      ],
      [
        "ast",
        "er"
      ],
      [
        "Ġm",
        "other"
      ],
      [
        "ur",
        "d"
      ],
      [
        "ĠII",
        "I"
      ],
      [
        "a",
        "ble"
      ],
      [
        "w",
        "ick"
      ],
      [
        "Ġ",
        "ke"
      ],
      [
        "Ġmy",
        "self"
      ],
      [
        "t",
        "he"
      ],
      [
        "Ġm",
        "a"
      ],
      [
        "Ġre",
        "m"
      ],
      [
        "l",
        "and"
      ],
      [
        "Ġli",
        "ve"
      ],
      [
        "Ġey",
        "es"
      ],
      [
        "f",
        "ord"
      ],
      [
        "ar",
        "wick"
      ],
      [
        "Ġbe",
        "g"
      ],
      [
        "Ġfriend",
        "s"
      ],
      [
        "Ġchi",
        "ld"
      ],
      [
        "l",
        "es"
      ],
      [
        "Ġw",
        "h"
      ],
      [
        "Ġth",
        "us"
      ],
      [
        "Ġu",
        "nt"
      ],
      [
        "Ġcon",
        "t"
      ],
      [
        "Ġlea",
        "ve"
      ],
      [
        "L",
        "UC"
      ],
      [
        "m",
        "e"
      ],
      [
        "Ġ",
        "im"
      ],
      [
        "ea",
        "ce"
      ],
      [
        "ĠY",
        "ORK"
      ],
      [
        "Ġd",
        "ie"
      ],
      [
        "Ġbe",
        "ing"
      ],
      [
        "AB",
        "EL"
      ],
      [
        "IS",
        "ABEL"
      ],
      [
        "ISABEL",
        "LA"
      ],
      [
        "Ġ",
        "J"
      ],
      [
        "Ġpo",
        "or"
      ],
      [
        "p",
        "s"
      ],
      [
        "Ġst",
        "r"
      ],
      [
        "J",
        "U"
      ],
      [
        "L",
        "EO"
      ],
      [
        "l",
        "o"
      ],
      [
        "Ġl",
        "ong"
      ],
      [
        "ow",
        "s"
      ],
      [
        "Ġe",
        "ver"
      ],
      [
        "Ġcon",
        "s"
      ],
      [
        "LI",
        "ET"
      ],
      [
        "ĠW",
        "arwick"
      ],
      [
        "NT",
        "ES"
      ],
      [
        "aught",
        "er"
      ],
      [
        "JU",
        "LIET"
      ],
      [
        "LEO",
        "NTES"
      ],
      [
        "L",
        "et"
      ],
      [
        "Ġa",
        "way"
      ],
      [
        "Ġc",
        "rown"
      ],
      [
        "le",
        "d"
      ],
      [
        "Ġthou",
        "ght"
      ],
      [
        "Ġman",
        "y"
      ],
      [
        "k",
        "s"
      ],
      [
        "ou",
        "d"
      ],
      [
        "D",
        "Y"
      ],
      [
        "f",
        "or"
      ],
      [
        "Ġm",
        "ight"
      ],
      [
        "ha",
        "ll"
      ],
      [
        "Ġp",
        "e"
      ],
      [
        "Ġre",
        "p"
      ],
      [
        "LA",
        "DY"
      ],
      [
        "C",
        "E"
      ],
      [
        "V",
        "OL"
      ],
      [
        "Ġw",
        "om"
      ],
      [
        "EN",
        "CE"
      ],
      [
        "Ġli",
        "e"
      ],
      [
        "f",
        "f"
      ],
      [
        "is",
        "on"
      ],
      [
        "er",
        "c"
      ],
      [
        "Ġc",
        "our"
      ],
      [
        "Ġst",
        "ay"
      ],
      [
        "S",
        "he"
      ],
      [
        "s",
        "w"
      ],
      [
        "Ġs",
        "et"
      ],
      [
        "re",
        "d"
      ],
      [
        "at",
        "ter"
      ],
      [
        "Ġpr",
        "ince"
      ],
      [
        "S",
        "IC"
      ],
      [
        "w",
        "ell"
      ],
      [
        "Ġw",
        "ife"
      ],
      [
        "nd",
        "er"
      ],
      [
        "or",
        "s"
      ],
      [
        "Ġre",
        "st"
      ],
      [
        "har",
        "d"
      ],
      [
        "SIC",
        "INIUS"
      ],
      [
        "r",
        "ant"
      ],
      [
        "Ġt",
        "ong"
      ],
      [
        "Ġo",
        "ld"
      ],
      [
        "H",
        "is"
      ],
      [
        "Ġl",
        "e"
      ],
      [
        "Ġg",
        "one"
      ],
      [
        "Ġha",
        "r"
      ],
      [
        "c",
        "ome"
      ],
      [
        "ou",
        "ght"
      ],
      [
        "Ġlord",
        "s"
      ],
      [
        "Ġcom",
        "es"
      ],
      [
        "E",
        "Y"
      ],
      [
        "i",
        "ous"
      ],
      [
        "it",
        "tle"
      ],
      [
        "on",
        "t"
      ],
      [
        "at",
        "ch"
      ],
      [
        "c",
        "he"
      ],
      [
        "Ġg",
        "ri"
      ],
      [
        "T",
        "is"
      ],
      [
        "in",
        "t"
      ],
      [
        "Ġth",
        "ose"
      ],
      [
        "Ġh",
        "ouse"
      ],
      [
        "Ġre",
        "s"
      ],
      [
        "ul",
        "t"
      ],
      [
        "res",
        "s"
      ],
      [
        "ak",
        "es"
      ],
      [
        "LUC",
        "IO"
      ],
      [
        "i",
        "er"
      ]
    ]
  }
}